TRT-101601-EntropyCalibration2
input: 3bf529f5
/down_block_1/conv_1/conv/Conv_output_0: 3d226651
/down_block_1/conv_1/relu/Relu_output_0: 3d5362c4
/down_block_1/conv_2/conv/Conv_output_0: 3dacb5c7
/down_block_1/conv_2/relu/Relu_output_0: 3da21a27
/down_block_1/conv_3/conv/Conv_output_0: 3da09fb1
/down_block_1/conv_3/relu/Relu_output_0: 3db7ffed
/down_block_1/conv_4/conv/Conv_output_0: 3d9460e5
/down_block_1/conv_4/relu/Relu_output_0: 3d923944
/down_block_1/conv_5/conv/Conv_output_0: 3d2c7884
/down_block_1/conv_5/relu/Relu_output_0: 3d29ffe2
/down_block_1/conv_6/conv/Conv_output_0: 3ca534b7
/down_block_1/conv_6/relu/Relu_output_0: 3c93c359
/down_block_1/Concat_output_0: 3d9acf29
/down_block_1/conv_7/conv/Conv_output_0: 3db40146
/down_block_1/conv_7/relu/Relu_output_0: 3d622fcd
/down_block_1/Add_output_0: 3dee286f
/pool/MaxPool_output_0: 3dee286f
/down_block_2/conv_1/conv/Conv_output_0: 3d96367b
/down_block_2/conv_1/relu/Relu_output_0: 3d93be10
/down_block_2/conv_2/conv/Conv_output_0: 3d9720db
/down_block_2/conv_2/relu/Relu_output_0: 3d561305
/down_block_2/conv_3/conv/Conv_output_0: 3d97d9c2
/down_block_2/conv_3/relu/Relu_output_0: 3d8fdd44
/down_block_2/conv_4/conv/Conv_output_0: 3d7a12d3
/down_block_2/conv_4/relu/Relu_output_0: 3d5e4e61
/down_block_2/conv_5/conv/Conv_output_0: 3d8e3215
/down_block_2/conv_5/relu/Relu_output_0: 3d6a68ae
/down_block_2/conv_6/conv/Conv_output_0: 3d8ebc1a
/down_block_2/conv_6/relu/Relu_output_0: 3d664f65
/down_block_2/Concat_output_0: 3d561305
/down_block_2/conv_7/conv/Conv_output_0: 3d97a846
/down_block_2/conv_7/relu/Relu_output_0: 3d97a846
/down_block_2/Add_output_0: 3ddae644
/pool_1/MaxPool_output_0: 3ddae644
/down_block_3/conv_1/conv/Conv_output_0: 3da8a81b
/down_block_3/conv_1/relu/Relu_output_0: 3da8a81b
/down_block_3/conv_2/conv/Conv_output_0: 3db23db6
/down_block_3/conv_2/relu/Relu_output_0: 3d8a46d6
/down_block_3/conv_3/conv/Conv_output_0: 3d91f875
/down_block_3/conv_3/relu/Relu_output_0: 3d867aa9
/down_block_3/conv_4/conv/Conv_output_0: 3d9b705d
/down_block_3/conv_4/relu/Relu_output_0: 3da9d7af
/down_block_3/conv_5/conv/Conv_output_0: 3d65352d
/down_block_3/conv_5/relu/Relu_output_0: 3d447d25
/down_block_3/conv_6/conv/Conv_output_0: 3d75ef3f
/down_block_3/conv_6/relu/Relu_output_0: 3d8919f9
/down_block_3/Concat_output_0: 3d9355d6
/down_block_3/conv_7/conv/Conv_output_0: 3d96982c
/down_block_3/conv_7/relu/Relu_output_0: 3daa8bb8
/down_block_3/Add_output_0: 3df1c6c6
/pool_2/MaxPool_output_0: 3df1c6c6
/bottleneck/conv_1/conv/Conv_output_0: 3d96a5f6
/bottleneck/conv_1/relu/Relu_output_0: 3d89f1e7
/bottleneck/conv_2/conv/Conv_output_0: 3d834c82
/bottleneck/conv_2/relu/Relu_output_0: 3d8ac686
/bottleneck/conv_3/conv/Conv_output_0: 3d59608f
/bottleneck/conv_3/relu/Relu_output_0: 3d56fb04
/cbam0_2/channel_attention/ReduceMean_output_0: 3c7301ef
/cbam0_2/channel_attention/shared_MLP/shared_MLP.0/Conv_output_0: 3d9c83d3
/cbam0_2/channel_attention/shared_MLP/shared_MLP.1/Relu_output_0: 3da68357
/cbam0_2/channel_attention/shared_MLP/shared_MLP.2/Conv_output_0: 3d1b70ae
/cbam0_2/channel_attention/ReduceMax_output_0: 3ec3cd34
/cbam0_2/channel_attention/shared_MLP/shared_MLP.0_1/Conv_output_0: 3fe59587
/cbam0_2/channel_attention/shared_MLP/shared_MLP.1_1/Relu_output_0: 400134da
/cbam0_2/channel_attention/shared_MLP/shared_MLP.2_1/Conv_output_0: 3f6f72e7
/cbam0_2/channel_attention/Add_output_0: 3f7c36fb
/cbam0_2/channel_attention/sigmoid/Sigmoid_output_0: 3c010a14
/cbam0_2/Mul_output_0: 3df12774
/Resize_output_0: 3d56fb04
/Concat_output_0: 3da35ccb
/up_block_1/conv_1/conv/Conv_output_0: 3d86f090
/up_block_1/conv_1/relu/Relu_output_0: 3da7c6d8
/up_block_1/conv_2/conv/Conv_output_0: 3d68c688
/up_block_1/conv_2/relu/Relu_output_0: 3d3666d6
/cbam1/channel_attention/ReduceMean_output_0: 3c20f8f8
/cbam1/channel_attention/shared_MLP/shared_MLP.0/Conv_output_0: 3c8aa513
/cbam1/channel_attention/shared_MLP/shared_MLP.1/Relu_output_0: 0
/cbam1/channel_attention/shared_MLP/shared_MLP.2/Conv_output_0: 0
/cbam1/channel_attention/ReduceMax_output_0: 3de42a90
/cbam1/channel_attention/shared_MLP/shared_MLP.0_1/Conv_output_0: 3e57670c
/cbam1/channel_attention/shared_MLP/shared_MLP.1_1/Relu_output_0: 3e829ed8
/cbam1/channel_attention/shared_MLP/shared_MLP.2_1/Conv_output_0: 3d993c98
/cbam1/channel_attention/Add_output_0: 3d993c98
/cbam1/channel_attention/sigmoid/Sigmoid_output_0: 3b81fead
/cbam1/Mul_output_0: 3c6fb30d
/cbam1_2/channel_attention/ReduceMean_output_0: 3c2d6170
/cbam1_2/channel_attention/shared_MLP/shared_MLP.0/Conv_output_0: 3c8c8671
/cbam1_2/channel_attention/shared_MLP/shared_MLP.1/Relu_output_0: 3ce442fb
/cbam1_2/channel_attention/shared_MLP/shared_MLP.2/Conv_output_0: 3c187c22
/cbam1_2/channel_attention/ReduceMax_output_0: 3e759ad8
/cbam1_2/channel_attention/shared_MLP/shared_MLP.0_1/Conv_output_0: 3ecced34
/cbam1_2/channel_attention/shared_MLP/shared_MLP.1_1/Relu_output_0: 3f10b724
/cbam1_2/channel_attention/shared_MLP/shared_MLP.2_1/Conv_output_0: 3eb0f844
/cbam1_2/channel_attention/Add_output_0: 3ea66a1b
/cbam1_2/channel_attention/sigmoid/Sigmoid_output_0: 3c01d3a4
/cbam1_2/Mul_output_0: 3d373dcb
/Resize_1_output_0: 3c6fb30d
/Concat_1_output_0: 3cf47b0e
/up_block_2/conv_1/conv/Conv_output_0: 3d995785
/up_block_2/conv_1/relu/Relu_output_0: 3d6b5dc1
/up_block_2/conv_2/conv/Conv_output_0: 3d4da779
/up_block_2/conv_2/relu/Relu_output_0: 3d1ed001
/cbam2/channel_attention/ReduceMean_output_0: 3c1188b5
/cbam2/channel_attention/shared_MLP/shared_MLP.0/Conv_output_0: 3c9e5d5f
/cbam2/channel_attention/shared_MLP/shared_MLP.1/Relu_output_0: 3ca54e02
/cbam2/channel_attention/shared_MLP/shared_MLP.2/Conv_output_0: 3c49d66a
/cbam2/channel_attention/ReduceMax_output_0: 3df3ac47
/cbam2/channel_attention/shared_MLP/shared_MLP.0_1/Conv_output_0: 3e5f67e9
/cbam2/channel_attention/shared_MLP/shared_MLP.1_1/Relu_output_0: 3e8a11f2
/cbam2/channel_attention/shared_MLP/shared_MLP.2_1/Conv_output_0: 3e85f9fb
/cbam2/channel_attention/Add_output_0: 3e6ff912
/cbam2/channel_attention/sigmoid/Sigmoid_output_0: 3c02f5a6
/cbam2/Mul_output_0: 3c9e6584
/cbam2_2/channel_attention/ReduceMean_output_0: 3c016a8e
/cbam2_2/channel_attention/shared_MLP/shared_MLP.0/Conv_output_0: 3c0a92b7
/cbam2_2/channel_attention/shared_MLP/shared_MLP.1/Relu_output_0: 0
/cbam2_2/channel_attention/shared_MLP/shared_MLP.2/Conv_output_0: 0
/cbam2_2/channel_attention/ReduceMax_output_0: 3e5555b8
/cbam2_2/channel_attention/shared_MLP/shared_MLP.0_1/Conv_output_0: 3e335b95
/cbam2_2/channel_attention/shared_MLP/shared_MLP.1_1/Relu_output_0: 0
/cbam2_2/channel_attention/shared_MLP/shared_MLP.2_1/Conv_output_0: 0
/cbam2_2/channel_attention/Add_output_0: 0
/cbam2_2/channel_attention/sigmoid/Sigmoid_output_0: 3b810a14
/cbam2_2/Mul_output_0: 3d6e286f
/Resize_2_output_0: 3c9e6584
/Concat_2_output_0: 3cf61293
/up_block_3/conv_1/conv/Conv_output_0: 3d5218fd
/up_block_3/conv_1/relu/Relu_output_0: 3d4a2fa6
/up_block_3/conv_2/conv/Conv_output_0: 3d3948f2
/up_block_3/conv_2/relu/Relu_output_0: 3d2d54c2
/cbam3/channel_attention/ReduceMean_output_0: 3c8c9734
/cbam3/channel_attention/shared_MLP/shared_MLP.0/Conv_output_0: 3c4150e6
/cbam3/channel_attention/shared_MLP/shared_MLP.1/Relu_output_0: 0
/cbam3/channel_attention/shared_MLP/shared_MLP.2/Conv_output_0: 0
/cbam3/channel_attention/ReduceMax_output_0: 3e47df1b
/cbam3/channel_attention/shared_MLP/shared_MLP.0_1/Conv_output_0: 3e00b8ae
/cbam3/channel_attention/shared_MLP/shared_MLP.1_1/Relu_output_0: 3e002d87
/cbam3/channel_attention/shared_MLP/shared_MLP.2_1/Conv_output_0: 3e0cfbf6
/cbam3/channel_attention/Add_output_0: 3e0cfbf6
/cbam3/channel_attention/sigmoid/Sigmoid_output_0: 3c03eced
/cbam3/Mul_output_0: 3cb0bd9d
/predictor/Conv_output_0: 3dda695d
heatmap: 3a20d7bc
